bb83126f
3cbfb15b
bba3d70a
bc271de7
bc0b4396
3ca30553
bcc985f0
bc5d2f1b
bcbe0ded
bc91d14e
3cfc5048
3c5b8bac
bbe21965
3ca8c155
bcacd9e8
3c03126f
3d00346e
3b902de0
3b83126f
bd09a027
3bff9724
3c5ed289
3cef34d7
bc8b4396
3bf5c28f
bc378034
3d0a0903
bc09a027
3bdb8bac
3b1d4952
bb09a027
3b79096c
bbd4fdf4
bc59e83e
bcdab9f5
3cc154ca
bc6a4a8c
3cc56d5d
bc54fdf4
bcac0831
bbf9096c
bca30553
3c20902e
bbe56042
bac49ba6
3ba0902e
bc463f14
bc4154ca
bc741f21
bc8ce704
3cd35a86
3c3923a3
3a9d4952
3cb851ec
bcae7d56
bc3c6a7f
3d0f5c29
bb09a027
bc656042
3c6075f7
3c8a71de
bba3d70a
3c35dcc6
bc463f14
3d21cac1
3b9a0275
3a03126f
3c09a027
3c4b295f
3b09a027
bb30f27c
bccf41f2
3cb367a1
3ca161e5
ba902de0
bbf27bb3
ba03126f
3bbe0ded
3d00346e
3c86594b
bca57a78
3a378034
bbd844d0
3cb9f55a
bcb9f55a
bbb43958
bc1a0275
bb83126f
bc07fcb9
3cd5cfab
bc51b717
bbb43958
3c22339c
bc11d14e
bb4b295f
bb8ce704
3b83126f
3a902de0
3c90ff97
3c6075f7
3c5013a9
bc8ce704
bbbac711
3caa64c3
bcc154ca
3c11d14e
3d051eb8
3c4ccccd
bb51b717
bcb43958
3c79096c
3cea4a8c
3c463f14
3c11d14e
ba378034
bc96bb99
bc2dab9f
bb727bb3
3bebedfa
3c2f4f0e
3c59e83e
3b4b295f
bb102de0
3c9a0275
3cc08312
bc8f5c29
3c28c155
3c95e9e2
3ca57a78
3a51b717
bcd9e83e
3cb367a1
bcd6a162
bca71de7
bce21965
3c7c5048
3ba71de7
bcc63f14
3cbe0ded
ba83126f
bc86594b
3c42f838
baf9096c
bc535a86
bcaa64c3
3c9ba5e3
bcc22681
bb51b717
bcff9724
bbd1b717
3c9e1b09
bbb78034
bca161e5
bcff9724
3bce703b
3b30f27c
3c8240b8
3c51b717
3c6d9168
3ba3d70a
bcd42c3d
3c15182b
bc95e9e2
3a83126f
3c016f00
3c0ce704
3b03126f
bc30f27c
3bd4fdf4
3c7df3b6
b99d4952
bcd0e560
bac49ba6
bca3d70a
bc872b02
bc9374bc
3c1eecc0
bbbe0ded
3d072b02
3b378034
3c271de7
3ba71de7
3c9a0275
bbf9096c
3ba71de7
3c86594b
bc7765fe
3c5ed289
3b2a64c3
bc7765fe
3c9c779a
bbf27bb3
3bef34d7
ba51b717
bb03126f
bca8c155
bba0902e
3cb6ae7d
3cc7e282
3b89a027
bc04b5dd
bad1b717
bb102de0
bc51b717
bcf9db23
3a03126f
3cb50b0f
3bd1b717
ba1d4952
bcff9724
3cc8b439
bbce703b
3d0240b8
3c8f5c29
bcbac711
3c016f00
3cb367a1
3c816f00
bc42f838
bce703b0
bc63bcd3
3c0e8a72
bc47e282
bc83126f
ba1d4952
3c06594b
3b23d70a
3cc7e282
3bfc5048
3a51b717
bcf765fe
bc271de7
bc8240b8
3c741f21
3c9ad42c
bc5013a9
3cbe0ded
3c5013a9
baf9096c
3c7aacda
bca64c30
bba71de7
3c91d14e
3c6a4a8c
bcc985f0
bcae7d56
3ab78034
bc28c155
3b4b295f
bbe56042
3cce703b
bc858794
bc09a027
bbc49ba6
bc88ce70
3ce147ae
3aebedfa
bc5013a9
bccf41f2
3b449ba6
bb9374bc
3badab9f
bc35dcc6
3d010625
bce147ae
bc1eecc0
3bcb295f
bc96bb99
3c727bb3
bbf5c28f
bba3d70a
bbd844d0
bbf5c28f
3cab367a
bb09a027
bb03126f
3bd4fdf4
baaa64c3
bcf4f0d8
bbd844d0
bce8a71e
bc06594b
bac49ba6
bcc49ba6
ba378034
bcd4fdf4
ba83126f
bb79096c
bc016f00
3cbfb15b
3cf0d845
bc8f5c29
3bbac711
b951b717
bcb851ec
3951b717
3b03126f
3c7765fe
3bfc5048
bb6bedfa
bc741f21
bcce703b
3ca0902e
bcd0e560
3c9c779a
3d044d01
3c8f5c29
3b03126f
bc54fdf4
3c9eecc0
bb9d4952
bbc7e282
bcf41f21
3c5844d0
bc8db8bb
bb96bb99
bb3e0ded
3cb43958
bbf27bb3
bc7765fe
3bd4fdf4
3bebedfa
bc86594b
3ca71de7
3cbac711
b99d4952
3c5ed289
bb16bb99
bc7aacda
bcc08312
bc1d4952
bb102de0
3bbac711
3d051eb8
3b89a027
3a9d4952
bcebedfa
bc51b717
bc3c6a7f
3cbfb15b
3c16bb99
399d4952
3cd288ce
bc88ce70
bcded289
3c2a64c3
bc22339c
3c56a162
3c6a4a8c
bc858794
3c741f21
3c47e282
3c902de0
3cd35a86
bb8ce704
bc016f00
3c3c6a7f
bcb50b0f
bc621965
3b727bb3
3c03126f
3bb0f27c
bb96bb99
3ccccccd
3c656042
39d1b717
3b79096c
bbf9096c
bc463f14
bc86594b
bc30f27c
bca30553
bc87fcb9
bc9ba5e3
3c42f838
bc04b5dd
bb727bb3
bcea4a8c
bc03126f
bc3ac711
3ca71de7
bcfdf3b6
3b79096c
bc3e0ded
3c8b4396
bc2f4f0e
3c102de0
bc9a0275
bcca57a8
bc0e8a72
3c56a162
3b89a027
3b89a027
3cbedfa4
3c0ce704
bbcb295f
3c6f34d7
bc449ba6
3a1d4952
3c9d4952
bbb43958
3b1d4952
3c3295ea
3aaa64c3
bb656042
3a1d4952
3ce075f7
3cdb8bac
bcb923a3
3c56a162
3c5d2f1b
bc4154ca
3cb851ec
bc3295ea
bceb1c43
baaa64c3
3cc08312
b9d1b717
bcb43958
bc30f27c
bb5ed289
bccb295f
3ba3d70a
bc54fdf4
3ca4a8c1
bc6703b0
bbbac711
3c35dcc6
3c51b717
bc978d50
3c88ce70
bc1d4952
bb102de0
3c09a027
bc79096c
bca0902e
3c8b4396
3b656042
bc83126f
3ccb295f
3c23d70a
bc30f27c
3c727bb3
3cb5dcc6
ba51b717
3c8b4396
3d051eb8
bcf0d845
bc102de0
3a6bedfa
3c1ba5e3
3b5844d0
3bcb295f
bcacd9e8
3a902de0
3c06594b
3bc49ba6
3ce3bcd3
bbe56042
3cab367a
bc185f07
3bebedfa
3c20902e
bc2dab9f
3c75c28f
bb9a0275
3c535a86
bc271de7
bc9e1b09
3c858794
bbef34d7
bc91d14e
bc9eecc0
3cecbfb1
3bcb295f
bccf41f2
bc04b5dd
bc102de0
bce075f7
bc8ce704
bcb367a1
3b5844d0
3cfb7e91
3aebedfa
3c03126f
3c5013a9
3cc710cb
bcca57a8
3c4985f0
bcacd9e8
3cacd9e8
3c872b02
3c449ba6
bcf9096c
3c51b717
3c91d14e
3a378034
bc23d70a
bb9374bc
bcfdf3b6
3c87fcb9
bc656042
3bd844d0
bcbc6a7f
bb3e0ded
3d116873
3c89a027
bcb0f27c
3aebedfa
3c9c779a
bb51b717
3c343958
