bcd40032
3abca02f
bd1095af
3c7f583a
3b14c29a
bc7190d1
bd081e47
3b863cc6
bcc6e08f
bd007033
3caeff5c
bd2a4010
bcb1ca7d
bcf6d97b
3c6a4229
bcc36da8
3ccb76f7
bcfd06bc
bccbab65
bc094523
3cbf93ff
bcd57bc8
3ca3a29c
3c8811b2
bc4e0fc3
bc9e12a5
3d196fa8
3d07aaef
3c926e98
bb1b5dbf
bd2e8188
bd00431c
bd1d81f1
bca0ddc6
bd18d478
3d081d3b
bc9ec4e7
bd253eb4
3d0f227d
3d2e5797
3ceddce8
3b4c1e51
3cce5d5b
bd314b9d
bd151c5c
3cc10300
bd47da1f
3d097529
3ca7bf62
bd41c0ca
3cd8a116
3cc9b414
bce57321
bc5cf030
3be696a2
3d067f0b
3c8d0679
bcc97b74
bc2ba387
3ad89f69
3b649038
bd2137f4
3cbc2b95
3d44bd34
3b98b8c9
bc9d0a67
bd0fdc16
bc739086
bd19b6f6
bd323465
bccf7879
3c81450f
3a9883f0
3ce15ca7
bccd63cc
bca94dd7
bc585dfb
bd4e94ee
3cf42785
bd314b9d
bd40767d
3d06bacf
3cad6883
3c8548aa
bc78a090
bd20e0eb
bd346aa1
bd23c42a
bc83cf2d
3d0625ea
bd1626b3
3d00e065
bbb96d74
bd294ab2
394511c2
bcd33d29
3cfb30f9
bc9ef73c
3d15a8df
bd278c00
bbaf2a25
3b8c1c03
3c79830e
3c4ef673
bcfe0ce1
3d180d3d
3d41db01
3c047e7f
3cb15b57
bd03c18b
3c7b5d03
3c6a2d30
3cbd6e8b
3d00dd40
3d461954
3c9c53f4
bd27ce10
bcac6046
3d3f6b1a
3cb7bf1f
3cad70e7
bd45aa2e
3cdeaee2
3cde99e9
3d120afa
bcd47171
bc0f75bf
3c76598e
3d1cde5d
3c019b0b
bc3b0e5e
bd5157ac
bcd275ef
bcc6aa08
bd047c31
bbc5c217
3b7c7be7
3c79ce8e
bc9c5a3e
3cc80410
3cce075f
3c8a6dad
bd039475
bc78e3ac
3c7b04ee
3c8c8473
bd343c7d
bc426dce
bc0ec2a6
bb864f3a
bce6cf42
3d09e343
389ed24f
bc35aa71
3caed139
3c123a2a
3c695315
3cb88440
bcbb7f9d
3cd512ec
bc1a7130
baa251cf
bd188095
3c9bc558
bd4537e3
3c911277
baa22630
3c49fb61
3cee978d
bd155821
bd0bc8c1
bd00bfe4
3d35c39c
bc4cdd94
bd3d2631
bd1492ff
bc9af5ba
3cbb927d
3d3674d1
bcf2580c
bcac3223
3bf67f4e
3c563cb8
3c668a0d
bcdad96a
bcb80885
3d10c3d2
bcb01861
3c4ee9dd
3ce09dd0
3cfc0097
bd5f9160
3c6032db
3cca59c0
3c9c8eac
bd191149
3d16cd6c
3be99c10
3d193815
3bed50d1
bd1947d0
bcffbce4
3b170a73
bcb6c376
bd2eefa2
bcfeb8d8
3badbc66
bc6b4203
bd253a82
bbd967e6
3d52e621
3bbff980
3d074fb5
bd08aac9
bce338b4
3b90d9d7
3c46de76
ba0d6d3b
3d149731
bd38ec10
bd170f7c
bd3feb07
bcbd05af
bcf82f51
3b6a8da8
bd34fa48
bb771dd9
3ca7674d
3c096b4e
bcc9be90
bd6cdd0e
3d266fd6
bd282518
3cbe1a82
3c08effe
39489d12
3cb47c74
bd0573a8
bc6e136e
bcf4e011
bbd65435
bbabb880
bcba4b55
3d001f75
bc4faace
bcbe2b49
3cf1bcdc
3ca21c8a
bce132b5
bd026890
3cba6ce3
3bb64edc
bc10a930
bd03d790
bc9a4378
3d2cde1a
3d16238e
3ce0d66f
bcbd640f
bcc7ecff
bc302928
bcddb984
3cca18bd
3d3d74d6
bbdf5f77
3d0723ab
3d304253
bd24fa8b
3d1f0a1c
3ca75eea
bbc7e282
3cc812be
bcea1405
3a5f7648
bc3fc222
3c49ff93
bc23ca0a
3d17edc8
bd326070
bcb573eb
bd0052d6
3ca84381
3c9ada77
bbd3c86a
bd0e1e71
bd091afc
3ca3d0c0
3d18d9b6
3c8d77b8
3d4487ba
3c93532e
3d2a821f
3c4254a4
bd255193
3c7eef5f
bb8c197e
3cc827b7
3d29fbe7
bd076d11
bc0770a2
3d2979e1
bc860dcc
3c3677f7
bbac8605
3c7be76d
3cc9624a
3cbd5348
bd15eaee
3d0d65e4
3ca9131f
bc77ec35
3ca9d841
bcb5610b
bc114461
bd413b9f
3c022d6c
bbc5f7c6
bcea3df7
bd1230ba
3d050acc
3c86e19c
3b19ccc5
3cfe3088
3d3c408e
3d4d0bb7
3d0d0785
bd1d0636
3c43e74b
3b8cca7e
bcd1d25b
3c3be447
3b372241
bc7f7597
3d036c9c
3cb3e9a7
3d1bf163
bcb039ef
3d2555c5
bc8c1765
3d46f156
3be027f3
bd4213a1
3c6b91b4
bcf50c1c
bd1aa3f0
3bc15aa9
3cd7eed4
3d3ebe16
3c9ef523
3cd49f95
bc4dd50b
3c88893b
3bb42968
3a9acf24
bd327350
3d252370
3c78a8f4
bca65f0f
3c0fb00c
3d4d8cb0
bbe18c77
bcd73a79
3c512019
3b94e1a4
bc1bf021
bbf06dbc
bd27b5f2
3c4f1c32
bd130058
3d11c087
3cbaa36a
3d023a6d
bd0be729
3b7aa7d1
bb0c85b5
3d215875
3cc9f2fe
bc5c486b
bd3397dd
3d0c20d5
3be30bd3
bc044f1a
3d08a9bd
bc1a7fde
3aa9ebf7
bd0764ae
3c325f63
bd35aa71
bc48259e
bc74f50a
3cab302f
bcf444e1
3d2b5a21
3c8e0221
bd18e864
bb7ebd0a
3c189309
3c18b9a0
bcc79d4e
bd04f3ba
bd0e820e
3c48f755
3cb910c3
bbefbbe5
3c51569f
bc2658c5
3c86db51
3ca7631b
bd6dbf8c
bc90a56a
bd216b55
bc9f2346
3cf04bc2
3d26d267
bd074b84
bc92c062
bc3d72bd
3d1b63d4
bca1cef2
bcdb3398
3d253544
3ccd24e1
bd455b8a
bc9bef4a
bd2f1993
3c8b955f
3c5eca25
bd2b15f9
bcaab042
3d1d4739
3c70ed3e
3d246f15
3d21c68f
bcf24d90
bccf722e
bd2e2da5
3c9fe64f
bd1a921d
3cbe9857
3cf8140e
3c9ec700
bca2cecd
bcc2a66e
3b2f236f
bd147cfa
3c723897
3c636d22
bc2260e8
3d253c9b
3cae0c17
bbaebd17
bd2aee20
3c8d844d
bd0cd424
bd82c6ef
bd23c85c
3cd616f8
3cf1ef31
bd1c62a2
3aeaca0e
bd123d4f
3d3d5022
3cb8e087
3c8fc0d3
bd07e7c0
3cbb44e5
bca1c25d
3d1e9e1b
bd3441bc
bd17d06c
bcddfeb9
3d2f5caf
3d01669d
3d24894c
3c6264e5
bd26644e
3cf13059
3d04651f
bd16b010
bc0a2c3e
bd1cf249
3c89289e
3d05718f
3bf02d24
bbe5ffa4
bc0b61c8
bc2ef2c7
bd5289db
3d07f024
bc839475
ba009795
bd20b0af
3d2fb4c4
bbf49cf5
bd40db27
3baf010a
3cfc9bc7
3d069d73
3d217d28
bd105d10
3d22339c
bc7cbd55
3ca19eb6
bcb4e981
3d283904
3cab5c3a
3d08eac0
bcc3d684
bce8661b
3ce924f2
3cebfa8f
3cb8bac7